/**
  ******************************************************************************
  * @file    network_data_params.c
  * @author  AST Embedded Analytics Research Platform
  * @date    2024-12-23T18:28:57+0100
  * @brief   AI Tool Automatic Code Generator for Embedded NN computing
  ******************************************************************************
  * Copyright (c) 2024 STMicroelectronics.
  * All rights reserved.
  *
  * This software is licensed under terms that can be found in the LICENSE file
  * in the root directory of this software component.
  * If no LICENSE file comes with this software, it is provided AS-IS.
  ******************************************************************************
  */

#include "network_data_params.h"


/**  Activations Section  ****************************************************/
ai_handle g_network_activations_table[1 + 2] = {
  AI_HANDLE_PTR(AI_MAGIC_MARKER),
  AI_HANDLE_PTR(NULL),
  AI_HANDLE_PTR(AI_MAGIC_MARKER),
};




/**  Weights Section  ********************************************************/
AI_ALIGNED(32)
const ai_u64 s_network_weights_array_u64[593] = {
  0xbf042868bf0f9cc1U, 0xbdf0d97cbec76462U, 0x3ea512b03e00bff4U, 0x3e583224bef6787aU,
  0x3eb5d9a6bf06bab4U, 0xbc7b27c0bd72e9c0U, 0x3ef39e543ebfb566U, 0xbf04751ebe99e97aU,
  0x0U, 0x0U, 0x0U, 0x0U,
  0x0U, 0x0U, 0x0U, 0x0U,
  0x3e869ada3e02be4cU, 0xbe7cf3873c4cf060U, 0x3dfa0b7c3dd16e58U, 0x3dc119443e888ebeU,
  0x3ce1b4e03dfed7ecU, 0x3e593a5cbe2caa90U, 0x3dcf1fa83c8b73e0U, 0x3e6382183e6c9214U,
  0x3e6bcd6c3e107e54U, 0xbe6ad323bda93796U, 0xbe7a4b7fbd2e3d70U, 0x3e8c016cbe4ef18fU,
  0x3e0c435c3dc3742cU, 0x3e8ad8c0be6663d4U, 0x3e86efc6bd05e6d0U, 0xbe3280d6be6aa348U,
  0x3d79f030bd74e5c4U, 0x3da7e264be668e24U, 0xbe7d1c703e60de46U, 0x3d80106c3ccd6030U,
  0xbe6e96953d60d678U, 0x3df7303c3db0dc64U, 0xbcbec220be61f6adU, 0x3caed600bdd0060aU,
  0x3e879bc03df009ecU, 0xbe28f664bd1ee958U, 0xbe621d88be7984d4U, 0x3cb781e0be62165cU,
  0xbb7b42803e82e2b4U, 0xbdd5d36ebc469680U, 0x3e2e5a2c3e50a538U, 0xbdfbb0dabe1d90e0U,
  0x3e7874103d37b668U, 0x3e24cb263d5072e8U, 0x3e6710ca3d848260U, 0xbe76de3cbe7e1d07U,
  0x3e0efd54bcd8f1d8U, 0xbe614cb6be236a8eU, 0x3d2ccdb8be3e4eeeU, 0xbdc6a6ea3e8a98aeU,
  0x3e3cd70ebdac7c8aU, 0x396d28003e11d5f4U, 0xbe5baa6c3e47b78eU, 0xbe7cf1d13e434a64U,
  0xbe53cef6bd814a80U, 0xbc46e980be36a336U, 0x3e606070be263d04U, 0xbd7c7048bd94a3a8U,
  0x3e3e8800bd131b7cU, 0xbe4154293e7493f0U, 0xbe42ee263d6d38d0U, 0xbcb9aca0be53d089U,
  0xbc409ea0be717635U, 0xbde1cc503e369524U, 0xbe834cfb3c26ff20U, 0xbdc77798bcb75470U,
  0xbe8212f5bca8d5e0U, 0xbd52d3d4be28d302U, 0x3e258534be87bd07U, 0xbe833dc6be4ddde6U,
  0xbd8b19fabe51a05aU, 0xbc94a270bdd7552aU, 0x3e5d8df0be8241c1U, 0x3dc08484bcf8c028U,
  0x3e7adfc4be1797f1U, 0xbdbb88d8bd0c5eecU, 0x3d8783dc3e058298U, 0xbcc251903e34bc70U,
  0xbd815d04be0454e2U, 0xbc9fde40bda66156U, 0x3e17e0583ba8cec0U, 0x3d22ec98be1183eaU,
  0x3d3cd2083e153d6aU, 0xbe2b96ecbe7a830eU, 0x3e822998bdc10352U, 0xbde925cebd285280U,
  0x3e7c6f8cbe0ec477U, 0xbcb06a103dc5a8ccU, 0xbdf26118be04819bU, 0xbe3223cb3e678246U,
  0x3e4451ea3dbdb434U, 0x3cad94703d9d05a4U, 0xbe7160a4be3a382aU, 0x3df621a83e152134U,
  0xbdc11df4bdc3d65aU, 0x3e214efabe11b70aU, 0xbe4a960ebd0cc754U, 0x3d32b2a0bdcb0468U,
  0x3e773c38be4a651eU, 0x3e1674543dd0d550U, 0x3d5104083db83f18U, 0x3ddb2f84bdd3cbd0U,
  0xbe4b346a3dcaf03cU, 0xbb992f40bcf77d20U, 0xbe46407dbe04b4aeU, 0x3d537358bcf87888U,
  0x3ddfabd8be382715U, 0x3b2bf680be18da3aU, 0xbe5a69c8bdb4ec2cU, 0x3d8e54483a62ca00U,
  0xbe4b5f5cbd4db960U, 0x3dba7c043ddaaf10U, 0x3dd5830cbe051a79U, 0xbe405a62bdd92674U,
  0xbe762e503e09288cU, 0xbb651600bc486820U, 0xbdc8c84e3d6bc458U, 0x3c3fe9e0be0da4beU,
  0xbe715bc8bc9da2f0U, 0xbe550804bdacb372U, 0xbde4ec44be44acc4U, 0xbd8a7ca6be27da39U,
  0x3dd55158bce33f40U, 0x3e1eef783dbeac6cU, 0x3da1f7a83e5a1a24U, 0x3da8eba83e5a5322U,
  0xbe2475c23e49f4aeU, 0xbe1cb9893e5970eeU, 0x3e7fca603e5c7824U, 0xbe88d94bbe765076U,
  0x3e262d72be8b788cU, 0x3e07f8ea3e023f2eU, 0xbd1659a03e7509d4U, 0xbd855e4abd3c6ca0U,
  0xbb611200be232264U, 0xbcfe15a0be33810dU, 0xbe70e83e3d88a738U, 0xbe85215fbd6717ccU,
  0xbcc758483ddf5c0cU, 0xbe4d3de6bc680f20U, 0x3e5d6d62be66b4edU, 0xbe697b7e3dc0f778U,
  0xbd1f86d03e2b47beU, 0x3e784ac4bde73d58U, 0x3e724df4be2e3900U, 0xbe708596be75615cU,
  0x3e3e7d2ebe514ee1U, 0x3e20700ebd78ae68U, 0xbde1dd883e678052U, 0xbdee58783e0e7776U,
  0x3e658438bd90e074U, 0x3e0926863e8a7c30U, 0xbe050d3e3e109f34U, 0xbd924906bd21b2e4U,
  0x3cc07a603e2994d2U, 0xbd9da9703e167948U, 0xbe6c5180be3720e9U, 0x3dd1eca83e821968U,
  0xbe2a727ebde6afcaU, 0xbe01f13b3e01ebceU, 0x3e3b9150bdb86226U, 0x3d8f7398be3c9610U,
  0xbd1af258bd3f90c0U, 0x3e087646bd8bb834U, 0xbe08aa6e3cfa8f40U, 0x3e60e16c3d1d8cb8U,
  0xbdf5fa0e3e86138eU, 0xbe293058be8921deU, 0xbe7328c23dfe6d5cU, 0x3e01180a3d9f9ebcU,
  0xbe398ede3dd8636cU, 0xbd88db2e3e8491b4U, 0x3dd6f124be85c0f6U, 0xbce8aae8ba05ba00U,
  0xbe7ae18ebd87ed28U, 0x3e1f3b9abe444702U, 0x3e58664abe83df21U, 0xbdaeb6b8bd030850U,
  0xbe3257963e83715eU, 0x3dfc388cbe7f663eU, 0x3cd7bed0bd9e54ceU, 0xbc8669303c11c340U,
  0x3e1d58c4be56793cU, 0xbe483f3d3d56f338U, 0x3e08c7fabdc2b34eU, 0x3e8668723cf07e10U,
  0xbe3587ad3d81bc5cU, 0xbdd30ebebd4f1a60U, 0x3e5d8dd63c55bdc0U, 0xbe77bbbcbb280480U,
  0xbe233af03e768bc8U, 0x3c70cb803e23e6c4U, 0xbe170dd93e4b2968U, 0xbe48019abe1ec50aU,
  0x3d6cd098bdc63b86U, 0x3b030c003d2c2920U, 0xbe86c3933c578aa0U, 0xbe1ab71fbdc4dc18U,
  0xbe06f38d3e39040eU, 0xbe1491043e704ab0U, 0xbd830e82be83d560U, 0xbe7e30983be75340U,
  0x3dc1da3c3e08cb62U, 0xbd4780f03e15109eU, 0x3e41df9c3e13b884U, 0xbe0a1df93e0b3bb2U,
  0x3e1354623b2d5c00U, 0x3de1aae0bd9f8ddeU, 0xbe833299be37812cU, 0x3e57a4aabdd4f214U,
  0x3db884a8be471d11U, 0xbdda5b5e3cb20750U, 0xbb45f6803d8465dcU, 0xbe6bcbc5bd85b90aU,
  0x3dfbc84c3e2e0aaaU, 0x3e098c7c3d6bafc0U, 0xbe35883a3cf98720U, 0xbe8a93a4bc722180U,
  0xbdc2fce83e06f850U, 0xbded18d6bd0872ccU, 0xbdbdd0fe3e862576U, 0xbc4a4b80be66c1e6U,
  0xbddaf8c6bdb2f128U, 0x3deb36203e711510U, 0xbdff90fc3e7a7920U, 0xbe3efd3a3df02b44U,
  0xbe75856d3e7f06f4U, 0x3cb96030bdbfdf6cU, 0x3e11c934bda6ffd6U, 0xbba48c403e716cacU,
  0xbde3efc43e40a836U, 0xbe0390563e419724U, 0x3e3c3ccabe1a9a50U, 0xbe613671be4b5aa2U,
  0x3e88ff22bdd875a4U, 0x3e6373ac3dbeedbcU, 0x3e4acbccbe7c041bU, 0xbe3499503bd57cc0U,
  0x3dfb5540bdf934acU, 0xbdfea5aa3e883160U, 0x3e4b23a83d80b838U, 0x3e1efc943e287db4U,
  0x3c764d403d85e8b0U, 0x3e24b140bd9220e8U, 0xbd67c7acbdbc9c3eU, 0x3dc9b7b43e861c70U,
  0xbe3b2e443e1e9f18U, 0x3d417b18be7b2f18U, 0xbd2a7d00be01be88U, 0xbd47b4143d395360U,
  0xbe67aa5b3c3bda60U, 0x3dd5d7bc3e7f671cU, 0xbe4af33c3e0d28aeU, 0x3e8529f2be380fafU,
  0xbdfdec54be8568ebU, 0x3d279868be304e23U, 0x3bce56403d671de0U, 0x3e5c96eabe282a8cU,
  0xbdd6c3d8bdc3231cU, 0xbe72e11cbd09faa0U, 0xbe414a86be2c5962U, 0xbd13d790be2b4c80U,
  0xbe1522023e1f12c8U, 0xbe262b49be065d79U, 0x3d2cc720be8bd352U, 0xbe6d104c3a6f1a00U,
  0x3d779e40bb84f040U, 0x3daec408bd7113d0U, 0x3e2770643e585134U, 0x3e081342bbeba380U,
  0xbe362b09be4a8672U, 0x3e0edb86be4de872U, 0x3dddb9cc3dc428f4U, 0x3e29d51cbe814522U,
  0xbe8649ca3d327170U, 0xbe2c8238bd604ee4U, 0x3e716f90bda1ffc6U, 0xbe28c7b6be808266U,
  0x3d6e8e98bdbd82c4U, 0xbe0494023e6b214cU, 0x3e84c3e8bbbd6f40U, 0xbe2e84243e49652eU,
  0x3e4b4a8cbd86e262U, 0xbe22abd8bcbb4810U, 0x3d2c9f383e43c658U, 0xbe432d16bd6f1690U,
  0x3e264dc6be1106beU, 0x3d390e98be6243feU, 0x3e2e883a3e7192a8U, 0xbd71ee00bd1520c0U,
  0xbe253292be051af4U, 0xbd7e3d20be02dd0aU, 0xbdcb7d0abe413a02U, 0x3ce9a7703e42a082U,
  0xbd067a7cbda6fea4U, 0x3e8692543e1e0afcU, 0xbe6ac85fbe264386U, 0x3dcd1a04bdb738f2U,
  0xbac2f400bddf8676U, 0xbd16c5883d039680U, 0x3e7a95403b991dc0U, 0xbddb83b8bde71954U,
  0xbe6670c03e7c7970U, 0xbe83bae7be5f0a5aU, 0x3e300efabe2d4d38U, 0xbe57c47c3e562bd6U,
  0xbe32d73ebc994740U, 0x3e1a36da3a0ccc00U, 0xbd8cdabcbd2a4960U, 0xbe56b1843e0af2c0U,
  0x3e11eb7cbe41f6b2U, 0x3d314510be756dcaU, 0xbd8e9296be51db2aU, 0xbe0fcfd3bdee59bcU,
  0x3e68eedc3de40c48U, 0xbcb42df0be67c9ebU, 0x3dd83278bd458534U, 0x3e3cca223d1af9c0U,
  0x3e7e66d4bdb4f08eU, 0x3d50de783cccba80U, 0x3bc71a803e2b4ae0U, 0x3d72fd30be5f7ddaU,
  0xbe0828203e7ccca8U, 0x3e5b6576bdb683daU, 0xbd9b96f83d84b1c8U, 0xbe81a663be7f0949U,
  0xbe809a873e363990U, 0x3cfbf4c0bd709d6cU, 0xbe406ad93e1b7aa4U, 0x3e864d903e231d1eU,
  0xbd72182cbe68a430U, 0xbde98ab2be598ccaU, 0x3d2ccbb83e5433dcU, 0x3e54da10bd482a88U,
  0xbc4e9a403e29cf8aU, 0x3e8489243e5fa45cU, 0x3e02673abe6c1f80U, 0x3bb3e8403dd46da8U,
  0x3e4d53ee3d4e69b0U, 0x3db116403e2f1b0aU, 0x3e46406cbe89b962U, 0xbd79df803d37d950U,
  0xbe7d7a49bd412c04U, 0x3e7779203e6ae384U, 0x3e312f683ce08440U, 0x3e7548ac3da9ece0U,
  0x3da36c74be624229U, 0xbe5fe0873d7a3838U, 0x3e20e086be5657feU, 0xbe89f6bcbe8b7cc2U,
  0x3e143f0cbe801dbdU, 0x3e863320be864123U, 0xbdefd4d43e48eef8U, 0xbb7d8a003e874a4cU,
  0x3e5d59fa3cf792c0U, 0xbe11ccc73d220af0U, 0x3da242f8be69bd5bU, 0xbe78381abd704f74U,
  0xbdd509f03d74c050U, 0x3e1d28163b499780U, 0x3ddfefccbe7d7b13U, 0xbda4ae2c3e88105aU,
  0xbe035e793e8734a2U, 0xbe4054bc3cbedaf0U, 0xbe89b3733c4a3d80U, 0x3d8d3498be4703f0U,
  0x3e6a739cbd1a77ccU, 0x3e081956be1e18b6U, 0x3d4877a03e595260U, 0x3e32724abe896de2U,
  0xbe545be6bd6bea28U, 0x3e7e598c3dc4fce4U, 0x3da364503df8946cU, 0xbe8c10483e25c7caU,
  0x3e80906e3e2e1f30U, 0xbcf7f3703e39592cU, 0x3c78ae203e1f4faeU, 0xbc216ae03e430cceU,
  0xbe496672be1a95d4U, 0xbe36b166be7f4c5dU, 0x3b5ec600be82829bU, 0x3e6f7e343c8ceec0U,
  0x3cad4510bdfc5edcU, 0x3dec7798be721a03U, 0x3d6bcd103e5c40b0U, 0x3e7ede04bd3997dcU,
  0xbe193e2bbdf0feecU, 0x3d5b1ed03ddcc788U, 0xbdeb48fc3e4be5d8U, 0xbdd8bb8cbe413ddcU,
  0x3e7423dcbe0c6915U, 0x3e462d783d6011e0U, 0xbe383af83d300318U, 0xbe85273b3c8407d0U,
  0xbbcddcc0bc68da00U, 0xbe017debbe8439f5U, 0xbe82751a3dfebdc4U, 0x3d6b1e30bd3710c8U,
  0x3d2dc1703e48d506U, 0x3ca0a1f03cfbf080U, 0x3cb6f1503e806926U, 0x3d36d0e83dc6a3b0U,
  0xbdf46aaa3e303d58U, 0xbd5aef483c9bcd70U, 0xbdc696e4be44a8e1U, 0x3e653e3c3dd5b09cU,
  0xbe1bd3da3c939390U, 0x3e86de62bc3981c0U, 0xbe133798bcd35b30U, 0x3e11a3a6bdd07dd2U,
  0xbe81b541be83e007U, 0xbd90bc563e25ea24U, 0x3d47c6e83d202a60U, 0x3dbecea83d3a2e78U,
  0xbdd0bfc03d611738U, 0x3e7797d83d2974e0U, 0x3c83c1b03df911dcU, 0xbd1efd20bbb26a00U,
  0x3bf103c0bdc32b04U, 0xbdddd7d03e433672U, 0x3de7d1acbe6e0fbdU, 0xbe6a1bfabe022256U,
  0xbdc64ffebe3e8656U, 0xbc986600be04093aU, 0xbe3ee1e83cb45040U, 0xbe79fa3fbddc9e72U,
  0x3e1e39363d4a0268U, 0x3e2ac1ee3c0bab60U, 0xbda0f972be384996U, 0x3e0ae05e3d06e818U,
  0x3cc8be303e3404d0U, 0xbe2d3f46be82b33eU, 0x3e6fc18c3dea7674U, 0x3dc4fb343c9d52e0U,
  0xbe897f4ebe6b64ccU, 0x3e3d89da3e23b2bcU, 0xbd780b88be7f9e25U, 0x3e08eeba3da33ba4U,
  0xbd67a7043e2af2b6U, 0x3cdd6eb0be4c6bfcU, 0x3e082238be6da2fbU, 0x3e5b4ab0be1b403eU,
  0x3b0868803e4953d2U, 0xbe618dabbe203b4eU, 0x3e31bf70be2e74aaU, 0x3d1affe83cc86e20U,
  0x3d9056203cc39540U, 0x3d9fdca43cdb5a30U, 0xbda673cabe262f72U, 0xbe1c029d3da07cacU,
  0xbe256e14be7b69ecU, 0xbe8201a03de9d0e8U, 0x3da5cf083dd1e26cU, 0x3e25c24c3e483bc4U,
  0x3e551052bbee2680U, 0x3e6f379c3cbd84e0U, 0x3e781b5cbe17692eU, 0xbcf7a6a03e1effeaU,
  0x3e1d53643c88ab20U, 0xbe0435443db8eabcU, 0x3a8267003e3c2628U, 0x3e200dacbe2bd98aU,
  0xbe0ce5d33e51b2daU, 0xbaa05600bd7119c4U, 0x3e4831003e7eb40cU, 0xbd9d65143e7201e4U,
  0xbe44eaacbe5fb17eU, 0xbb0a4600be7074b1U, 0xbe8bbb12bdffa7c8U, 0xbe856eaf3c8e1270U,
  0xbe7f7034bd184af8U, 0xbe3060eabde274e8U, 0x3e8a30a63e7c6344U, 0x3dabc554be1b46ddU,
  0xbe8372d13df8bf38U, 0x3e855ff2be8bfa4cU, 0x3d151b98be50b95eU, 0x3dd517a03cb10950U,
  0xbe1f31e63d1e22e0U, 0x3de4b8e03e354900U, 0xbc1b65603e0f4336U, 0xbd9fc7b83e7b1600U,
  0xbe32c10a3e72e738U, 0x3e24a44c3d811c04U, 0x3e1e38ce3e341f3aU, 0xbe05e33fbe57912cU,
  0x3dba3488be839e3cU, 0x3d968ca4bdaf6b16U, 0x3dd15cd0bddeb8d4U, 0x3d886624bcf03608U,
  0x3d1ffd783e38f0b2U, 0xbe0fcc81bcf83d80U, 0xbe428c203e1c2f6cU, 0xbd85fdac3db78e6cU,
  0x3de3e7d0be791b8cU, 0x3e87bb863e40f5e6U, 0xbdd6edbe3cce71c0U, 0x3d9594983e7165c8U,
  0xbe152ce53e7acd50U, 0xbdc53ab63d8cf9ecU, 0xbe04abbf3e86bf5aU, 0x3e4792b0be606669U,
  0xbe2f85c63e47f1caU, 0x3e629b6c3e05e0d6U, 0xbe78305ebe2bd748U, 0x3a5466003daf589cU,
  0xbe61c34b3dcbd8a4U, 0xbd33330c3bbe8640U, 0x3dc82ee0bc3c5660U, 0x3e0436fe3e544436U,
  0xbe62bb76be7538fcU, 0x3dfe50cc3e20566aU, 0xbdc7b8cebdfb8134U, 0xbe482cb83e31fe8cU,
  0x3e7066b83b07cd00U, 0xbdaccb3e3d518910U, 0x3c169f60be145a4cU, 0xbd34ff00bd1b1bc4U,
  0x3e5e5d303e18ec3cU, 0xbe8064a93e18ff5eU, 0xbe1644bb3ddc7a70U, 0xbdc95eb03da67324U,
  0x0U, 0x0U, 0x0U, 0x0U,
  0x0U, 0x0U, 0x0U, 0x0U,
  0x0U, 0x0U, 0x0U, 0x0U,
  0x0U, 0x0U, 0x0U, 0x0U,
  0x0U, 0x0U, 0x0U, 0x0U,
  0x0U, 0x0U, 0x0U, 0x0U,
  0x0U, 0x0U, 0x0U, 0x0U,
  0x0U, 0x0U, 0x0U, 0x0U,
  0x3d65e7983e0477d4U, 0xbdc1e86c3dd2ff30U, 0x3db8388cbadbe900U, 0xbe6806b4be3b019aU,
  0xbe0985b6bddbe600U, 0x3e8a13aa3dc30618U, 0xbe9aed4e3e1fa5a8U, 0x3ca578803e2bb344U,
  0x3e043c00be67ceeeU, 0xbe82babbbe988327U, 0x3d8405683bb31800U, 0xbd7c4fe8be3653bfU,
  0x3daf7dc8bda71e10U, 0x3e358674be3af648U, 0x3dc8b2043d4bfc38U, 0xbdfed40c3e898aa4U,
  0xbe5752ce3d6d7090U, 0xbdd06aaebd91064eU, 0xbbaeb800be8b8c36U, 0x3e7819383e49c524U,
  0xbe4df8e63e266384U, 0x3c03ac60bdbc8afeU, 0xbe7d17dc3dcc3e2cU, 0xbe255c933e1fc8c8U,
  0xbdfc0a243dcbe3f0U, 0x3e8787cabe2557ecU, 0xbd9ea1a83db5ae74U, 0xbe9708733ce26700U,
  0x3e989842bbeed8c0U, 0xbe7a4c133e927ebaU, 0xbda4666cbe079efdU, 0xbe2e4d96be5c0374U,
  0x0U,
};


ai_handle g_network_weights_table[1 + 2] = {
  AI_HANDLE_PTR(AI_MAGIC_MARKER),
  AI_HANDLE_PTR(s_network_weights_array_u64),
  AI_HANDLE_PTR(AI_MAGIC_MARKER),
};

